{
  "version": "1.0",
  "truncation": null,
  "padding": null,
  "added_tokens": [
    {
      "id": 0,
      "special": true,
      "content": "<s>",
      "single_word": false,
      "lstrip": false,
      "rstrip": false,
      "normalized": false
    },
    {
      "id": 1,
      "special": true,
      "content": "<pad>",
      "single_word": false,
      "lstrip": false,
      "rstrip": false,
      "normalized": false
    },
    {
      "id": 2,
      "special": true,
      "content": "</s>",
      "single_word": false,
      "lstrip": false,
      "rstrip": false,
      "normalized": false
    },
    {
      "id": 3,
      "special": true,
      "content": "<unk>",
      "single_word": false,
      "lstrip": false,
      "rstrip": false,
      "normalized": false
    },
    {
      "id": 4,
      "special": true,
      "content": "<mask>",
      "single_word": false,
      "lstrip": false,
      "rstrip": false,
      "normalized": false
    }
  ],
  "normalizer": null,
  "pre_tokenizer": {
    "type": "ByteLevel",
    "add_prefix_space": false,
    "trim_offsets": true
  },
  "post_processor": {
    "type": "ByteLevel",
    "add_prefix_space": true,
    "trim_offsets": false
  },
  "decoder": {
    "type": "ByteLevel",
    "add_prefix_space": true,
    "trim_offsets": true
  },
  "model": {
    "type": "BPE",
    "dropout": null,
    "unk_token": null,
    "continuing_subword_prefix": null,
    "end_of_word_suffix": null,
    "fuse_unk": false,
    "vocab": {
      "<s>": 0,
      "<pad>": 1,
      "</s>": 2,
      "<unk>": 3,
      "<mask>": 4,
      "!": 5,
      "\"": 6,
      "#": 7,
      "$": 8,
      "%": 9,
      "&": 10,
      "'": 11,
      "(": 12,
      ")": 13,
      "*": 14,
      "+": 15,
      ",": 16,
      "-": 17,
      ".": 18,
      "/": 19,
      "0": 20,
      "1": 21,
      "2": 22,
      "3": 23,
      "4": 24,
      "5": 25,
      "6": 26,
      "7": 27,
      "8": 28,
      "9": 29,
      ":": 30,
      ";": 31,
      "<": 32,
      "=": 33,
      ">": 34,
      "?": 35,
      "@": 36,
      "A": 37,
      "B": 38,
      "C": 39,
      "D": 40,
      "E": 41,
      "F": 42,
      "G": 43,
      "H": 44,
      "I": 45,
      "J": 46,
      "K": 47,
      "L": 48,
      "M": 49,
      "N": 50,
      "O": 51,
      "P": 52,
      "Q": 53,
      "R": 54,
      "S": 55,
      "T": 56,
      "U": 57,
      "V": 58,
      "W": 59,
      "X": 60,
      "Y": 61,
      "Z": 62,
      "[": 63,
      "\\": 64,
      "]": 65,
      "^": 66,
      "_": 67,
      "`": 68,
      "a": 69,
      "b": 70,
      "c": 71,
      "d": 72,
      "e": 73,
      "f": 74,
      "g": 75,
      "h": 76,
      "i": 77,
      "j": 78,
      "k": 79,
      "l": 80,
      "m": 81,
      "n": 82,
      "o": 83,
      "p": 84,
      "q": 85,
      "r": 86,
      "s": 87,
      "t": 88,
      "u": 89,
      "v": 90,
      "w": 91,
      "x": 92,
      "y": 93,
      "z": 94,
      "{": 95,
      "|": 96,
      "}": 97,
      "~": 98,
      "¡": 99,
      "¢": 100,
      "£": 101,
      "¤": 102,
      "¥": 103,
      "¦": 104,
      "§": 105,
      "¨": 106,
      "©": 107,
      "ª": 108,
      "«": 109,
      "¬": 110,
      "®": 111,
      "¯": 112,
      "°": 113,
      "±": 114,
      "²": 115,
      "³": 116,
      "´": 117,
      "µ": 118,
      "¶": 119,
      "·": 120,
      "¸": 121,
      "¹": 122,
      "º": 123,
      "»": 124,
      "¼": 125,
      "½": 126,
      "¾": 127,
      "¿": 128,
      "À": 129,
      "Á": 130,
      "Â": 131,
      "Ã": 132,
      "Ä": 133,
      "Å": 134,
      "Æ": 135,
      "Ç": 136,
      "È": 137,
      "É": 138,
      "Ê": 139,
      "Ë": 140,
      "Ì": 141,
      "Í": 142,
      "Î": 143,
      "Ï": 144,
      "Ð": 145,
      "Ñ": 146,
      "Ò": 147,
      "Ó": 148,
      "Ô": 149,
      "Õ": 150,
      "Ö": 151,
      "×": 152,
      "Ø": 153,
      "Ù": 154,
      "Ú": 155,
      "Û": 156,
      "Ü": 157,
      "Ý": 158,
      "Þ": 159,
      "ß": 160,
      "à": 161,
      "á": 162,
      "â": 163,
      "ã": 164,
      "ä": 165,
      "å": 166,
      "æ": 167,
      "ç": 168,
      "è": 169,
      "é": 170,
      "ê": 171,
      "ë": 172,
      "ì": 173,
      "í": 174,
      "î": 175,
      "ï": 176,
      "ð": 177,
      "ñ": 178,
      "ò": 179,
      "ó": 180,
      "ô": 181,
      "õ": 182,
      "ö": 183,
      "÷": 184,
      "ø": 185,
      "ù": 186,
      "ú": 187,
      "û": 188,
      "ü": 189,
      "ý": 190,
      "þ": 191,
      "ÿ": 192,
      "Ā": 193,
      "ā": 194,
      "Ă": 195,
      "ă": 196,
      "Ą": 197,
      "ą": 198,
      "Ć": 199,
      "ć": 200,
      "Ĉ": 201,
      "ĉ": 202,
      "Ċ": 203,
      "ċ": 204,
      "Č": 205,
      "č": 206,
      "Ď": 207,
      "ď": 208,
      "Đ": 209,
      "đ": 210,
      "Ē": 211,
      "ē": 212,
      "Ĕ": 213,
      "ĕ": 214,
      "Ė": 215,
      "ė": 216,
      "Ę": 217,
      "ę": 218,
      "Ě": 219,
      "ě": 220,
      "Ĝ": 221,
      "ĝ": 222,
      "Ğ": 223,
      "ğ": 224,
      "Ġ": 225,
      "ġ": 226,
      "Ģ": 227,
      "ģ": 228,
      "Ĥ": 229,
      "ĥ": 230,
      "Ħ": 231,
      "ħ": 232,
      "Ĩ": 233,
      "ĩ": 234,
      "Ī": 235,
      "ī": 236,
      "Ĭ": 237,
      "ĭ": 238,
      "Į": 239,
      "į": 240,
      "İ": 241,
      "ı": 242,
      "Ĳ": 243,
      "ĳ": 244,
      "Ĵ": 245,
      "ĵ": 246,
      "Ķ": 247,
      "ķ": 248,
      "ĸ": 249,
      "Ĺ": 250,
      "ĺ": 251,
      "Ļ": 252,
      "ļ": 253,
      "Ľ": 254,
      "ľ": 255,
      "Ŀ": 256,
      "ŀ": 257,
      "Ł": 258,
      "ł": 259,
      "Ń": 260,
      "yl": 261,
      "et": 262,
      "ro": 263,
      "eth": 264,
      "ne": 265,
      "di": 266,
      "ethyl": 267,
      "en": 268,
      "methyl": 269,
      "mi": 270,
      "ri": 271,
      "lo": 272,
      "an": 273,
      "ox": 274,
      "ami": 275,
      "ph": 276,
      "-(": 277,
      "ch": 278,
      "chlo": 279,
      "ac": 280,
      "chloro": 281,
      "ol": 282,
      "hy": 283,
      "hyd": 284,
      "tri": 285,
      "id": 286,
      "az": 287,
      "rop": 288,
      "te": 289,
      "ni": 290,
      "no": 291,
      "ane": 292,
      "phen": 293,
      "prop": 294,
      "hydro": 295,
      "ate": 296,
      "ene": 297,
      "de": 298,
      "ben": 299,
      "benz": 300,
      "Ġac": 301,
      "oxy": 302,
      "one": 303,
      "phenyl": 304,
      "amino": 305,
      "Ġacid": 306,
      "th": 307,
      "ar": 308,
      "mo": 309,
      "um": 310,
      "ic": 311,
      "arb": 312,
      ")-": 313,
      "carb": 314,
      "ul": 315,
      "py": 316,
      "sul": 317,
      "sulf": 318,
      "thi": 319,
      "lu": 320,
      "meth": 321,
      "hydrox": 322,
      "flu": 323,
      "fluo": 324,
      "in": 325,
      "bu": 326,
      "but": 327,
      "cy": 328,
      "hydroxy": 329,
      "acet": 330,
      "dimethyl": 331,
      "bro": 332,
      "nit": 333,
      "azol": 334,
      "fluoro": 335,
      "he": 336,
      "bromo": 337,
      "nitro": 338,
      "oxo": 339,
      "pyri": 340,
      "clo": 341,
      "ano": 342,
      "dine": 343,
      "amide": 344,
      "amine": 345,
      "is": 346,
      "-[": 347,
      "al": 348,
      "pho": 349,
      "anyl": 350,
      "cyclo": 351,
      "methoxy": 352,
      "hex": 353,
      "benzo": 354,
      "benzene": 355,
      "tet": 356,
      "ent": 357,
      "tetr": 358,
      "pent": 359,
      "ur": 360,
      "sulfanyl": 361,
      "dichloro": 362,
      "ine": 363,
      "am": 364,
      "din": 365,
      "ium": 366,
      "tetra": 367,
      "carbox": 368,
      "propyl": 369,
      "phos": 370,
      "on": 371,
      "ride": 372,
      "il": 373,
      "dione": 374,
      "imi": 375,
      "le": 376,
      "iso": 377,
      "nitri": 378,
      "do": 379,
      "pyr": 380,
      "Ġ2": 381,
      "carboxyl": 382,
      "chloride": 383,
      "nitrile": 384,
      "thio": 385,
      "ethan": 386,
      "anoic": 387,
      "azole": 388,
      "propane": 389,
      "io": 390,
      "trichloro": 391,
      "sulfon": 392,
      "pyrimi": 393,
      "trifluoro": 394,
      "imid": 395,
      "ide": 396,
      "so": 397,
      "dihydro": 398,
      "fur": 399,
      "butyl": 400,
      "phosph": 401,
      "azo": 402,
      "propan": 403,
      "cyclohex": 404,
      "trimethyl": 405,
      "+)": 406,
      "ethoxy": 407,
      "nium": 408,
      "diox": 409,
      "bis": 410,
      "hydr": 411,
      "er": 412,
      "azine": 413,
      "sil": 414,
      "nic": 415,
      "acetamide": 416,
      "-[(": 417,
      "methan": 418,
      "or": 419,
      "eno": 420,
      "idine": 421,
      "qu": 422,
      "iodo": 423,
      "furan": 424,
      "pyrro": 425,
      "ure": 426,
      "carboxylic": 427,
      "pt": 428,
      "anoate": 429,
      "ammo": 430,
      "hept": 431,
      "pyridine": 432,
      "phospho": 433,
      "all": 434,
      "quin": 435,
      "acetic": 436,
      "urea": 437,
      "methylene": 438,
      "chlorophenyl": 439,
      "carbo": 440,
      "anil": 441,
      "sulfonyl": 442,
      "acetate": 443,
      "hexa": 444,
      "bd": 445,
      "pi": 446,
      "penta": 447,
      "dibromo": 448,
      "adi": 449,
      "methylsulfanyl": 450,
      "butane": 451,
      "+);": 452,
      "ino": 453,
      "ido": 454,
      "azin": 455,
      "ĠN": 456,
      "propanoic": 457,
      "dioxo": 458,
      "amate": 459,
      "inyl": 460,
      "]-": 461,
      "lam": 462,
      "bda": 463,
      "lambda": 464,
      "cyano": 465,
      "pyrimidine": 466,
      "carbamate": 467,
      "allyl": 468,
      "thiazol": 469,
      "idene": 470,
      "pyrid": 471,
      "na": 472,
      "phth": 473,
      "ind": 474,
      "isopropyl": 475,
      "ammonium": 476,
      "ethane": 477,
      "phenol": 478,
      "carboxylate": 479,
      "quinol": 480,
      "yclo": 481,
      "dec": 482,
      "benzoic": 483,
      "for": 484,
      "chloroethyl": 485,
      "amo": 486,
      "hydrochloride": 487,
      "oc": 488,
      "enyl": 489,
      "methane": 490,
      "hydrop": 491,
      "trifluoromethyl": 492,
      "pyrrol": 493,
      "oct": 494,
      "pyrimidin": 495,
      "difluoro": 496,
      "pyridin": 497,
      "imidazol": 498,
      "cyan": 499,
      "acetyl": 500,
      "alde": 501,
      "hyde": 502,
      "aldehyde": 503,
      "at": 504,
      "nitroso": 505,
      "gen": 506,
      "vinyl": 507,
      "yn": 508,
      "form": 509,
      "bic": 510,
      "us": 511,
      "tetrahydro": 512,
      "silane": 513,
      "bicyclo": 514,
      "idin": 515,
      "aniline": 516,
      "se": 517,
      "naphth": 518,
      "pip": 519,
      "uri": 520,
      "carbamo": 521,
      "Ġacet": 522,
      "sulfo": 523,
      "Ġacetate": 524,
      "diol": 525,
      "hydropy": 526,
      "butan": 527,
      "ethanone": 528,
      "diamine": 529,
      "phenoxy": 530,
      "diethyl": 531,
      "dium": 532,
      "aza": 533,
      "dimethoxy": 534,
      "pyridyl": 535,
      "eri": 536,
      "azolo": 537,
      "st": 538,
      "dio": 539,
      "hydraz": 540,
      "oxi": 541,
      "propanoate": 542,
      "carbonitrile": 543,
      "Ġ3": 544,
      "sium": 545,
      "ethanol": 546,
      "ter": 547,
      "carboxamide": 548,
      "indol": 549,
      "carbon": 550,
      "thioxo": 551,
      "dimethylamino": 552,
      "ryl": 553,
      "imidazole": 554,
      "nitrophenyl": 555,
      "oxido": 556,
      "naphthal": 557,
      "pentane": 558,
      "enoate": 559,
      "piperi": 560,
      "oxa": 561,
      "iri": 562,
      "dithi": 563,
      "dichlorophenyl": 564,
      "co": 565,
      "gu": 566,
      "butanoic": 567,
      "guan": 568,
      "dihydroxy": 569,
      "chro": 570,
      "thiocyan": 571,
      "hydroxymethyl": 572,
      "-)": 573,
      "ethanamine": 574,
      "bor": 575,
      "triazine": 576,
      "sel": 577,
      "phosphoryl": 578,
      "carbamoyl": 579,
      "hydroxyethyl": 580,
      "sulfonic": 581,
      "aziri": 582,
      "tert": 583,
      "benzoate": 584,
      "methanamine": 585,
      "10": 586,
      "Ġ4": 587,
      "sodium": 588,
      "ato": 589,
      "tol": 590,
      "tolyl": 591,
      "puri": 592,
      "erc": 593,
      "merc": 594,
      "benzamide": 595,
      "phosphate": 596,
      "naphthalene": 597,
      "chloromethyl": 598,
      "benzyl": 599,
      "oxazol": 600,
      "tetrachloro": 601,
      "hydropyri": 602,
      "guanidine": 603,
      "ynyl": 604,
      "diene": 605,
      "quinoline": 606,
      "yne": 607,
      "Ġchloride": 608,
      "tricyclo": 609,
      "dioxol": 610,
      "enoic": 611,
      "furyl": 612,
      "deca": 613,
      "mium": 614,
      "imino": 615,
      "pl": 616,
      "thiadi": 617,
      "hydrazide": 618,
      "cyclohexyl": 619,
      "phene": 620,
      "pentan": 621,
      "silyl": 622,
      "triazin": 623,
      "carboxy": 624,
      "sulfonamide": 625,
      "benzofuran": 626,
      "ars": 627,
      "ury": 628,
      "carbonyl": 629,
      "mercury": 630,
      "amido": 631,
      "hydrate": 632,
      "po": 633,
      "methanol": 634,
      "rate": 635,
      "thienyl": 636,
      "pentyl": 637,
      "oxir": 638,
      "as": 639,
      "Ġ1": 640,
      "methylsulfonyl": 641,
      "arso": 642,
      "thiazole": 643,
      "aceto": 644,
      "bromi": 645,
      "oxygen": 646,
      "quinolin": 647,
      "Ġphosphate": 648,
      "diamino": 649,
      "thiophene": 650,
      "phosphane": 651,
      "dinitro": 652,
      "bromide": 653,
      "tetramethyl": 654,
      "anilino": 655,
      "nane": 656,
      "carbaldehyde": 657,
      "tribromo": 658,
      "methoxyphenyl": 659,
      "hepta": 660,
      "tetrahydrofuran": 661,
      "hydropyrimi": 662,
      "dien": 663,
      "butanoate": 664,
      "pyrrole": 665,
      "un": 666,
      "tetrafluoro": 667,
      "piro": 668,
      "rph": 669,
      "oxide": 670,
      "morph": 671,
      "morphol": 672,
      "'-": 673,
      "ep": 674,
      "anoyl": 675,
      "dioic": 676,
      "][": 677,
      "bo": 678,
      "cyclohexane": 679,
      "hydrazine": 680,
      "fluoride": 681,
      "13": 682,
      "fluorop": 683,
      "tas": 684,
      "dide": 685,
      "ethylsulfanyl": 686,
      "pyrrolidin": 687,
      "dioate": 688,
      "potas": 689,
      "bromophenyl": 690,
      "potassium": 691,
      "hydroxyphenyl": 692,
      "propanamide": 693,
      "sulfate": 694,
      "pyrrolidine": 695,
      "chrom": 696,
      "aziridin": 697,
      "ideneamino": 698,
      "piperidine": 699,
      "propanenitrile": 700,
      "anium": 701,
      "trichloromethyl": 702,
      "anide": 703,
      "inum": 704,
      "fluorophenyl": 705,
      "sulfonate": 706,
      "atinum": 707,
      "hexahydropyrimi": 708,
      "platinum": 709,
      "hydrogen": 710,
      "ammoni": 711,
      "selen": 712,
      "cal": 713,
      "cium": 714,
      "me": 715,
      "Ġoxi": 716,
      "oxadi": 717,
      "propoxy": 718,
      "imidazo": 719,
      "cyclohexa": 720,
      "Ġoxime": 721,
      "spiro": 722,
      "ylsulfanyl": 723,
      "cyclopenta": 724,
      "per": 725,
      "trione": 726,
      "thioate": 727,
      "formamide": 728,
      "dinitrile": 729,
      "pentanoic": 730,
      "imine": 731,
      "iodide": 732,
      "methyleneamino": 733,
      "thiocyanato": 734,
      "dithiol": 735,
      "thiol": 736,
      "acetamido": 737,
      "phosphonic": 738,
      "oxirane": 739,
      "diaza": 740,
      "methylamino": 741,
      "triazol": 742,
      "cyclopropane": 743,
      "hexane": 744,
      "11": 745,
      "hexahydropyrimidine": 746,
      "),": 747,
      "02": 748,
      "nitrous": 749,
      "-[[": 750,
      "octane": 751,
      "hydropyr": 752,
      "-);": 753,
      "calcium": 754,
      "oxazole": 755,
      "teri": 756,
      "benzaldehyde": 757,
      "phosphono": 758,
      "acetonitrile": 759,
      "ad": 760,
      "ylidene": 761,
      "oxal": 762,
      "anth": 763,
      "zin": 764,
      "azep": 765,
      "decane": 766,
      "purin": 767,
      "adium": 768,
      "thiocyanate": 769,
      "purine": 770,
      "ammonia": 771,
      "ti": 772,
      "diazo": 773,
      "ag": 774,
      "Ġamide": 775,
      "nesium": 776,
      "octa": 777,
      "agnesium": 778,
      "magnesium": 779,
      "benzodioxol": 780,
      "rox": 781,
      "dioxido": 782,
      "ethi": 783,
      "diethoxy": 784,
      "alum": 785,
      "benzonitrile": 786,
      "propanedinitrile": 787,
      "indole": 788,
      "bium": 789,
      "isothiocyanato": 790,
      "dioxa": 791,
      "triazolo": 792,
      "benzenesulfonamide": 793,
      "pyrazole": 794,
      "heptane": 795,
      "stan": 796,
      "hydroxide": 797,
      "bromomethyl": 798,
      "zinc": 799,
      "diiodo": 800,
      "nitrate": 801,
      "isobutyl": 802,
      "pyran": 803,
      "12": 804,
      "uteri": 805,
      "benzoyl": 806,
      "pentachloro": 807,
      "triazole": 808,
      "acetoxy": 809,
      "benzothiazol": 810,
      "uterio": 811,
      "ir": 812,
      "inic": 813,
      "pper": 814,
      "propanoyl": 815,
      "sulfinyl": 816,
      "dioxide": 817,
      "[(": 818,
      "bal": 819,
      "ron": 820,
      "rium": 821,
      "amidine": 822,
      "cyclopropyl": 823,
      "thiophen": 824,
      "copper": 825,
      "cobal": 826,
      "cobalt": 827,
      "fer": 828,
      "methanone": 829,
      "imidazolidine": 830,
      "borane": 831,
      "erox": 832,
      "ethio": 833,
      "dichloride": 834,
      "enamide": 835,
      "benzimidazole": 836,
      "allyloxy": 837,
      "hydrazino": 838,
      "carbonate": 839,
      "uth": 840,
      "ric": 841,
      "butoxy": 842,
      "hexan": 843,
      "disodium": 844,
      "cyclopentane": 845,
      "piper": 846,
      "tanium": 847,
      "isothio": 848,
      "uric": 849,
      "butanamide": 850,
      "chromen": 851,
      "titanium": 852,
      "ethiol": 853,
      "mol": 854,
      "Ġthiocyanate": 855,
      "min": 856,
      "fluor": 857,
      "cyclohexan": 858,
      "trimethylsilyl": 859,
      "pentafluoro": 860,
      "thiazolidin": 861,
      "ke": 862,
      "methylcarbamate": 863,
      "triene": 864,
      "thia": 865,
      "thione": 866,
      "naphthyl": 867,
      "piperid": 868,
      "thiadiazol": 869,
      "isothiourea": 870,
      "alu": 871,
      "Ġfluoride": 872,
      "amic": 873,
      "cyclopent": 874,
      "dioxane": 875,
      "arsonic": 876,
      "morpholine": 877,
      "minum": 878,
      "aluminum": 879,
      "'-(": 880,
      "Ġhydrogen": 881,
      "disulfanyl": 882,
      "ethylene": 883,
      "benzenesulfonyl": 884,
      "pyrazol": 885,
      "piperidyl": 886,
      "arium": 887,
      "gst": 888,
      "dicarboxylic": 889,
      "enium": 890,
      "benzenesulfonic": 891,
      "nicke": 892,
      "formyl": 893,
      "aziridine": 894,
      "ungst": 895,
      "oxadiazol": 896,
      "ungsten": 897,
      "ylamine": 898,
      "ethylamino": 899,
      "non": 900,
      "deuterio": 901,
      "hydroxylamine": 902,
      "pyrazine": 903,
      "arsane": 904,
      "dy": 905,
      "Ġ5": 906,
      "enal": 907,
      "sti": 908,
      "fluoroprop": 909,
      "ethioate": 910,
      "tungsten": 911,
      "zir": 912,
      "Ġprop": 913,
      "ylmethyl": 914,
      "dithio": 915,
      "methylprop": 916,
      "thiazolo": 917,
      "bromoethyl": 918,
      "tetrahydropyr": 919,
      "formate": 920,
      "conium": 921,
      "zirconium": 922,
      "azanide": 923,
      "14": 924,
      "hexyl": 925,
      "carboxymethyl": 926,
      "stannane": 927,
      "mane": 928,
      "dipotassium": 929,
      "enenitrile": 930,
      "cyclobutane": 931,
      "phosphanyl": 932,
      "hexahydro": 933,
      "ger": 934,
      "van": 935,
      "Ġ(": 936,
      "rol": 937,
      "chlori": 938,
      "acyclo": 939,
      "tel": 940,
      "isoxazol": 941,
      "trichlorophenyl": 942,
      "plum": 943,
      "morpholino": 944,
      "tetrahydropyran": 945,
      "man": 946,
      "aminophenyl": 947,
      "sulfuric": 948,
      "hexanoic": 949,
      "benzoqu": 950,
      "tetrazol": 951,
      "pyrazolo": 952,
      "phosphol": 953,
      "phosphino": 954,
      "heptan": 955,
      "inone": 956,
      "vanadium": 957,
      "mang": 958,
      "benzoquinone": 959,
      "rh": 960,
      "Ġsulfate": 961,
      "ant": 962,
      "cyclopentyl": 963,
      "dihydrogen": 964,
      "cyanoethyl": 965,
      "pyridazine": 966,
      "pyridazin": 967,
      "diazonium": 968,
      "perox": 969,
      "ver": 970,
      "ethynyl": 971,
      "diaz": 972,
      "methylbenzene": 973,
      "oxazin": 974,
      "triiodo": 975,
      "idyne": 976,
      "benzimidazol": 977,
      "aminoethyl": 978,
      "dimethylphenyl": 979,
      "nitrop": 980,
      "isocyan": 981,
      "isoindol": 982,
      "azono": 983,
      "hydrazono": 984,
      "silver": 985,
      "quinazol": 986,
      "phthal": 987,
      "methanesulfonate": 988,
      "oxabicyclo": 989,
      "acetohydrazide": 990,
      "piperazine": 991,
      "bane": 992,
      "ybd": 993,
      "rous": 994,
      "nor": 995,
      "nonane": 996,
      "isopropoxy": 997,
      "butanedioate": 998,
      "azatricyclo": 999
    },
    "merges": [
      "y l",
      "e t",
      "r o",
      "et h",
      "n e",
      "d i",
      "eth yl",
      "e n",
      "m ethyl",
      "m i",
      "r i",
      "l o",
      "a n",
      "o x",
      "a mi",
      "p h",
      "- (",
      "c h",
      "ch lo",
      "a c",
      "chlo ro",
      "o l",
      "h y",
      "hy d",
      "t ri",
      "i d",
      "a z",
      "ro p",
      "t e",
      "n i",
      "n o",
      "a ne",
      "ph en",
      "p rop",
      "hyd ro",
      "a te",
      "e ne",
      "d e",
      "b en",
      "ben z",
      "Ġ ac",
      "ox y",
      "o ne",
      "phen yl",
      "ami no",
      "Ġac id",
      "t h",
      "a r",
      "m o",
      "u m",
      "i c",
      "ar b",
      ") -",
      "c arb",
      "u l",
      "p y",
      "s ul",
      "sul f",
      "th i",
      "l u",
      "m eth",
      "hydro x",
      "f lu",
      "flu o",
      "i n",
      "b u",
      "bu t",
      "c y",
      "hydrox y",
      "ac et",
      "di methyl",
      "b ro",
      "ni t",
      "az ol",
      "fluo ro",
      "h e",
      "bro mo",
      "nit ro",
      "ox o",
      "py ri",
      "c lo",
      "an o",
      "di ne",
      "ami de",
      "ami ne",
      "i s",
      "- [",
      "a l",
      "ph o",
      "an yl",
      "cy clo",
      "meth oxy",
      "he x",
      "benz o",
      "benz ene",
      "t et",
      "en t",
      "tet r",
      "p ent",
      "u r",
      "sulf anyl",
      "di chloro",
      "i ne",
      "a m",
      "di n",
      "i um",
      "tetr a",
      "carb ox",
      "prop yl",
      "pho s",
      "o n",
      "ri de",
      "i l",
      "di one",
      "i mi",
      "l e",
      "is o",
      "ni tri",
      "d o",
      "py r",
      "Ġ 2",
      "carbox yl",
      "chlo ride",
      "nitri le",
      "thi o",
      "eth an",
      "ano ic",
      "azol e",
      "prop ane",
      "i o",
      "tri chloro",
      "sulf on",
      "pyri mi",
      "tri fluoro",
      "imi d",
      "id e",
      "s o",
      "di hydro",
      "f ur",
      "but yl",
      "phos ph",
      "az o",
      "prop an",
      "cyclo hex",
      "tri methyl",
      "+ )",
      "eth oxy",
      "ni um",
      "di ox",
      "b is",
      "hyd r",
      "e r",
      "az ine",
      "s il",
      "ni c",
      "acet amide",
      "-[ (",
      "meth an",
      "o r",
      "en o",
      "i dine",
      "q u",
      "io do",
      "fur an",
      "pyr ro",
      "ur e",
      "carboxyl ic",
      "p t",
      "ano ate",
      "am mo",
      "he pt",
      "pyri dine",
      "phos pho",
      "al l",
      "qu in",
      "acet ic",
      "ure a",
      "methyl ene",
      "chloro phenyl",
      "carb o",
      "an il",
      "sulfon yl",
      "acet ate",
      "hex a",
      "b d",
      "p i",
      "pent a",
      "di bromo",
      "a di",
      "methyl sulfanyl",
      "but ane",
      "+) ;",
      "i no",
      "id o",
      "az in",
      "Ġ N",
      "prop anoic",
      "di oxo",
      "am ate",
      "in yl",
      "] -",
      "l am",
      "bd a",
      "lam bda",
      "cy ano",
      "pyrimi dine",
      "carb amate",
      "all yl",
      "thi azol",
      "id ene",
      "pyri d",
      "n a",
      "ph th",
      "in d",
      "iso propyl",
      "ammo nium",
      "eth ane",
      "phen ol",
      "carboxyl ate",
      "quin ol",
      "y clo",
      "de c",
      "benzo ic",
      "f or",
      "chloro ethyl",
      "a mo",
      "hydro chloride",
      "o c",
      "en yl",
      "meth ane",
      "hyd rop",
      "trifluoro methyl",
      "pyrro l",
      "oc t",
      "pyrimi din",
      "di fluoro",
      "pyri din",
      "imid azol",
      "cy an",
      "acet yl",
      "al de",
      "hyd e",
      "alde hyde",
      "a t",
      "nitro so",
      "g en",
      "v inyl",
      "y n",
      "for m",
      "b ic",
      "u s",
      "tetra hydro",
      "sil ane",
      "bic yclo",
      "i din",
      "anil ine",
      "s e",
      "na phth",
      "pi p",
      "u ri",
      "carb amo",
      "Ġac et",
      "sulf o",
      "Ġacet ate",
      "di ol",
      "hydrop y",
      "but an",
      "ethan one",
      "di amine",
      "phen oxy",
      "di ethyl",
      "di um",
      "az a",
      "di methoxy",
      "pyrid yl",
      "e ri",
      "azo lo",
      "s t",
      "di o",
      "hydr az",
      "ox i",
      "prop anoate",
      "carbo nitrile",
      "Ġ 3",
      "s ium",
      "ethan ol",
      "te r",
      "carbox amide",
      "ind ol",
      "carb on",
      "thi oxo",
      "dimethyl amino",
      "r yl",
      "imid azole",
      "nitro phenyl",
      "ox ido",
      "naphth al",
      "pent ane",
      "eno ate",
      "pip eri",
      "ox a",
      "i ri",
      "di thi",
      "dichloro phenyl",
      "c o",
      "g u",
      "but anoic",
      "gu an",
      "di hydroxy",
      "ch ro",
      "thio cyan",
      "hydroxy methyl",
      "- )",
      "ethan amine",
      "b or",
      "tri azine",
      "se l",
      "phospho ryl",
      "carbamo yl",
      "hydroxy ethyl",
      "sulfo nic",
      "az iri",
      "ter t",
      "benzo ate",
      "methan amine",
      "1 0",
      "Ġ 4",
      "so dium",
      "at o",
      "t ol",
      "tol yl",
      "p uri",
      "er c",
      "m erc",
      "benz amide",
      "phosph ate",
      "naphthal ene",
      "chloro methyl",
      "benz yl",
      "ox azol",
      "tetra chloro",
      "hydropy ri",
      "guan idine",
      "yn yl",
      "di ene",
      "quinol ine",
      "y ne",
      "Ġ chloride",
      "tri cyclo",
      "diox ol",
      "eno ic",
      "fur yl",
      "dec a",
      "mi um",
      "imi no",
      "p l",
      "thi adi",
      "hydraz ide",
      "cyclohex yl",
      "ph ene",
      "pent an",
      "sil yl",
      "tri azin",
      "carb oxy",
      "sulfon amide",
      "benzo furan",
      "ar s",
      "ur y",
      "carbon yl",
      "merc ury",
      "ami do",
      "hydr ate",
      "p o",
      "methan ol",
      "r ate",
      "thi enyl",
      "pent yl",
      "oxi r",
      "a s",
      "Ġ 1",
      "methyl sulfonyl",
      "ar so",
      "thi azole",
      "acet o",
      "bro mi",
      "oxy gen",
      "quinol in",
      "Ġ phosphate",
      "di amino",
      "thio phene",
      "phosph ane",
      "di nitro",
      "bromi de",
      "tetra methyl",
      "anil ino",
      "n ane",
      "carb aldehyde",
      "tri bromo",
      "methoxy phenyl",
      "hept a",
      "tetrahydro furan",
      "hydropyri mi",
      "di en",
      "but anoate",
      "pyrro le",
      "u n",
      "tetra fluoro",
      "pi ro",
      "r ph",
      "ox ide",
      "mo rph",
      "morph ol",
      "' -",
      "e p",
      "ano yl",
      "dio ic",
      "] [",
      "b o",
      "cyclohex ane",
      "hydr azine",
      "fluo ride",
      "1 3",
      "fluo rop",
      "t as",
      "di de",
      "ethyl sulfanyl",
      "pyrrol idin",
      "dio ate",
      "po tas",
      "bromo phenyl",
      "potas sium",
      "hydroxy phenyl",
      "propan amide",
      "sulf ate",
      "pyrrol idine",
      "chro m",
      "aziri din",
      "idene amino",
      "piperi dine",
      "propane nitrile",
      "an ium",
      "trichloro methyl",
      "an ide",
      "in um",
      "fluoro phenyl",
      "sulfon ate",
      "at inum",
      "hexa hydropyrimi",
      "pl atinum",
      "hydro gen",
      "ammo ni",
      "sel en",
      "c al",
      "c ium",
      "m e",
      "Ġ oxi",
      "ox adi",
      "prop oxy",
      "imid azo",
      "cyclohex a",
      "Ġoxi me",
      "s piro",
      "yl sulfanyl",
      "cyclo penta",
      "p er",
      "tri one",
      "thio ate",
      "form amide",
      "di nitrile",
      "pent anoic",
      "imi ne",
      "io dide",
      "methylene amino",
      "thiocyan ato",
      "dithi ol",
      "thi ol",
      "acet amido",
      "phospho nic",
      "oxir ane",
      "di aza",
      "methyl amino",
      "tri azol",
      "cyclo propane",
      "hex ane",
      "1 1",
      "hexahydropyrimi dine",
      ") ,",
      "0 2",
      "nitro us",
      "-[ [",
      "oct ane",
      "hydropy r",
      "-) ;",
      "cal cium",
      "ox azole",
      "te ri",
      "benz aldehyde",
      "phospho no",
      "aceto nitrile",
      "a d",
      "yl idene",
      "ox al",
      "an th",
      "z in",
      "az ep",
      "dec ane",
      "puri n",
      "adi um",
      "thiocyan ate",
      "puri ne",
      "ammoni a",
      "t i",
      "di azo",
      "a g",
      "Ġ amide",
      "ne sium",
      "oct a",
      "ag nesium",
      "m agnesium",
      "benzo dioxol",
      "ro x",
      "diox ido",
      "eth i",
      "di ethoxy",
      "al um",
      "benzo nitrile",
      "propane dinitrile",
      "indol e",
      "b ium",
      "iso thiocyanato",
      "diox a",
      "tri azolo",
      "benzene sulfonamide",
      "pyr azole",
      "hept ane",
      "st an",
      "hydrox ide",
      "bromo methyl",
      "zin c",
      "di iodo",
      "nit rate",
      "iso butyl",
      "pyr an",
      "1 2",
      "u teri",
      "benzo yl",
      "penta chloro",
      "tri azole",
      "acet oxy",
      "benzo thiazol",
      "uteri o",
      "i r",
      "i nic",
      "p per",
      "prop anoyl",
      "sulf inyl",
      "diox ide",
      "[ (",
      "b al",
      "ro n",
      "ri um",
      "ami dine",
      "cyclo propyl",
      "thio phen",
      "co pper",
      "co bal",
      "cobal t",
      "f er",
      "methan one",
      "imidazol idine",
      "bor ane",
      "e rox",
      "eth io",
      "di chloride",
      "en amide",
      "benz imidazole",
      "allyl oxy",
      "hydraz ino",
      "carbon ate",
      "u th",
      "ri c",
      "but oxy",
      "hex an",
      "di sodium",
      "cyclo pentane",
      "pip er",
      "t anium",
      "iso thio",
      "uri c",
      "butan amide",
      "chrom en",
      "ti tanium",
      "ethi ol",
      "m ol",
      "Ġ thiocyanate",
      "mi n",
      "fluo r",
      "cyclohex an",
      "trimethyl silyl",
      "penta fluoro",
      "thiazol idin",
      "k e",
      "methyl carbamate",
      "tri ene",
      "thi a",
      "thi one",
      "naphth yl",
      "piperi d",
      "thiadi azol",
      "isothio urea",
      "a lu",
      "Ġ fluoride",
      "ami c",
      "cyclo pent",
      "diox ane",
      "arso nic",
      "morphol ine",
      "min um",
      "alu minum",
      "' -(",
      "Ġ hydrogen",
      "di sulfanyl",
      "ethyl ene",
      "benzene sulfonyl",
      "pyr azol",
      "piperid yl",
      "a rium",
      "g st",
      "di carboxylic",
      "en ium",
      "benzene sulfonic",
      "nic ke",
      "form yl",
      "aziri dine",
      "un gst",
      "oxadi azol",
      "ungst en",
      "yl amine",
      "ethyl amino",
      "no n",
      "de uterio",
      "hydrox ylamine",
      "pyr azine",
      "ars ane",
      "d y",
      "Ġ 5",
      "en al",
      "st i",
      "fluorop rop",
      "ethio ate",
      "t ungsten",
      "z ir",
      "Ġ prop",
      "yl methyl",
      "di thio",
      "methyl prop",
      "thi azolo",
      "bromo ethyl",
      "tetra hydropyr",
      "form ate",
      "co nium",
      "zir conium",
      "az anide",
      "1 4",
      "hex yl",
      "carboxy methyl",
      "stan nane",
      "m ane",
      "di potassium",
      "ene nitrile",
      "cyclo butane",
      "phosph anyl",
      "hexa hydro",
      "g er",
      "v an",
      "Ġ (",
      "ro l",
      "chlo ri",
      "ac yclo",
      "te l",
      "is oxazol",
      "trichloro phenyl",
      "pl um",
      "morphol ino",
      "tetrahydropyr an",
      "m an",
      "amino phenyl",
      "sulf uric",
      "hex anoic",
      "benzo qu",
      "tetr azol",
      "pyr azolo",
      "phosph ol",
      "phosph ino",
      "hept an",
      "ino ne",
      "van adium",
      "man g",
      "benzoqu inone",
      "r h",
      "Ġ sulfate",
      "an t",
      "cyclo pentyl",
      "dihydro gen",
      "cyano ethyl",
      "pyrid azine",
      "pyrid azin",
      "diazo nium",
      "p erox",
      "v er",
      "eth ynyl",
      "di az",
      "methyl benzene",
      "ox azin",
      "tri iodo",
      "id yne",
      "benz imidazol",
      "amino ethyl",
      "dimethyl phenyl",
      "nit rop",
      "iso cyan",
      "iso indol",
      "azo no",
      "hydr azono",
      "sil ver",
      "quin azol",
      "phth al",
      "methane sulfonate",
      "oxa bicyclo",
      "aceto hydrazide",
      "piper azine",
      "b ane",
      "y bd",
      "ro us",
      "no r",
      "no nane",
      "iso propoxy",
      "butane dioate",
      "aza tricyclo"
    ]
  }
}